unsigned char csi_model_nn_tflite[] = {
  0x1c, 0x00, 0x00, 0x00, 0x54, 0x46, 0x4c, 0x33, 0x14, 0x00, 0x20, 0x00,
  0x1c, 0x00, 0x18, 0x00, 0x14, 0x00, 0x10, 0x00, 0x0c, 0x00, 0x00, 0x00,
  0x08, 0x00, 0x04, 0x00, 0x14, 0x00, 0x00, 0x00, 0x1c, 0x00, 0x00, 0x00,
  0x98, 0x00, 0x00, 0x00, 0xf0, 0x00, 0x00, 0x00, 0xdc, 0x09, 0x00, 0x00,
  0xec, 0x09, 0x00, 0x00, 0x78, 0x13, 0x00, 0x00, 0x03, 0x00, 0x00, 0x00,
  0x01, 0x00, 0x00, 0x00, 0x10, 0x00, 0x00, 0x00, 0x00, 0x00, 0x0a, 0x00,
  0x10, 0x00, 0x0c, 0x00, 0x08, 0x00, 0x04, 0x00, 0x0a, 0x00, 0x00, 0x00,
  0x0c, 0x00, 0x00, 0x00, 0x1c, 0x00, 0x00, 0x00, 0x3c, 0x00, 0x00, 0x00,
  0x0f, 0x00, 0x00, 0x00, 0x73, 0x65, 0x72, 0x76, 0x69, 0x6e, 0x67, 0x5f,
  0x64, 0x65, 0x66, 0x61, 0x75, 0x6c, 0x74, 0x00, 0x01, 0x00, 0x00, 0x00,
  0x04, 0x00, 0x00, 0x00, 0x90, 0xff, 0xff, 0xff, 0x10, 0x00, 0x00, 0x00,
  0x04, 0x00, 0x00, 0x00, 0x08, 0x00, 0x00, 0x00, 0x6f, 0x75, 0x74, 0x70,
  0x75, 0x74, 0x5f, 0x30, 0x00, 0x00, 0x00, 0x00, 0x01, 0x00, 0x00, 0x00,
  0x04, 0x00, 0x00, 0x00, 0xca, 0xf4, 0xff, 0xff, 0x04, 0x00, 0x00, 0x00,
  0x0c, 0x00, 0x00, 0x00, 0x6b, 0x65, 0x72, 0x61, 0x73, 0x5f, 0x74, 0x65,
  0x6e, 0x73, 0x6f, 0x72, 0x00, 0x00, 0x00, 0x00, 0x02, 0x00, 0x00, 0x00,
  0x34, 0x00, 0x00, 0x00, 0x04, 0x00, 0x00, 0x00, 0xdc, 0xff, 0xff, 0xff,
  0x13, 0x00, 0x00, 0x00, 0x04, 0x00, 0x00, 0x00, 0x13, 0x00, 0x00, 0x00,
  0x43, 0x4f, 0x4e, 0x56, 0x45, 0x52, 0x53, 0x49, 0x4f, 0x4e, 0x5f, 0x4d,
  0x45, 0x54, 0x41, 0x44, 0x41, 0x54, 0x41, 0x00, 0x08, 0x00, 0x0c, 0x00,
  0x08, 0x00, 0x04, 0x00, 0x08, 0x00, 0x00, 0x00, 0x12, 0x00, 0x00, 0x00,
  0x04, 0x00, 0x00, 0x00, 0x13, 0x00, 0x00, 0x00, 0x6d, 0x69, 0x6e, 0x5f,
  0x72, 0x75, 0x6e, 0x74, 0x69, 0x6d, 0x65, 0x5f, 0x76, 0x65, 0x72, 0x73,
  0x69, 0x6f, 0x6e, 0x00, 0x14, 0x00, 0x00, 0x00, 0xe8, 0x08, 0x00, 0x00,
  0xe0, 0x08, 0x00, 0x00, 0x70, 0x08, 0x00, 0x00, 0x54, 0x08, 0x00, 0x00,
  0x44, 0x06, 0x00, 0x00, 0x14, 0x06, 0x00, 0x00, 0x04, 0x04, 0x00, 0x00,
  0xb4, 0x03, 0x00, 0x00, 0x04, 0x01, 0x00, 0x00, 0xd4, 0x00, 0x00, 0x00,
  0xcc, 0x00, 0x00, 0x00, 0xc4, 0x00, 0x00, 0x00, 0xbc, 0x00, 0x00, 0x00,
  0xb4, 0x00, 0x00, 0x00, 0xac, 0x00, 0x00, 0x00, 0xa4, 0x00, 0x00, 0x00,
  0x9c, 0x00, 0x00, 0x00, 0x94, 0x00, 0x00, 0x00, 0x74, 0x00, 0x00, 0x00,
  0x04, 0x00, 0x00, 0x00, 0x96, 0xf5, 0xff, 0xff, 0x04, 0x00, 0x00, 0x00,
  0x60, 0x00, 0x00, 0x00, 0x10, 0x00, 0x00, 0x00, 0x00, 0x00, 0x00, 0x00,
  0x08, 0x00, 0x0e, 0x00, 0x08, 0x00, 0x04, 0x00, 0x08, 0x00, 0x00, 0x00,
  0x10, 0x00, 0x00, 0x00, 0x24, 0x00, 0x00, 0x00, 0x00, 0x00, 0x06, 0x00,
  0x08, 0x00, 0x04, 0x00, 0x06, 0x00, 0x00, 0x00, 0x04, 0x00, 0x00, 0x00,
  0x00, 0x00, 0x00, 0x00, 0x0c, 0x00, 0x18, 0x00, 0x14, 0x00, 0x10, 0x00,
  0x0c, 0x00, 0x04, 0x00, 0x0c, 0x00, 0x00, 0x00, 0x02, 0xc1, 0x86, 0xd3,
  0x97, 0xe8, 0xd7, 0x97, 0x02, 0x00, 0x00, 0x00, 0x02, 0x00, 0x00, 0x00,
  0x04, 0x00, 0x00, 0x00, 0x06, 0x00, 0x00, 0x00, 0x32, 0x2e, 0x32, 0x30,
  0x2e, 0x30, 0x00, 0x00, 0x02, 0xf6, 0xff, 0xff, 0x04, 0x00, 0x00, 0x00,
  0x10, 0x00, 0x00, 0x00, 0x31, 0x2e, 0x31, 0x33, 0x2e, 0x31, 0x00, 0x00,
  0x00, 0x00, 0x00, 0x00, 0x00, 0x00, 0x00, 0x00, 0x80, 0xee, 0xff, 0xff,
  0x84, 0xee, 0xff, 0xff, 0x88, 0xee, 0xff, 0xff, 0x8c, 0xee, 0xff, 0xff,
  0x90, 0xee, 0xff, 0xff, 0x94, 0xee, 0xff, 0xff, 0x98, 0xee, 0xff, 0xff,
  0x9c, 0xee, 0xff, 0xff, 0x3e, 0xf6, 0xff, 0xff, 0x04, 0x00, 0x00, 0x00,
  0x20, 0x00, 0x00, 0x00, 0xf1, 0x4b, 0x10, 0xbf, 0x04, 0xb5, 0x1d, 0xbf,
  0x21, 0x26, 0xb0, 0xbc, 0xfb, 0xfd, 0xfd, 0x3d, 0x86, 0x14, 0xd6, 0x3d,
  0x96, 0xe5, 0x87, 0x3e, 0x70, 0xd5, 0x03, 0xbf, 0x29, 0x82, 0x3c, 0x3c,
  0x6a, 0xf6, 0xff, 0xff, 0x04, 0x00, 0x00, 0x00, 0xa0, 0x02, 0x00, 0x00,
  0x57, 0xc0, 0xb5, 0xbe, 0x45, 0xb7, 0x42, 0xbd, 0xa3, 0x92, 0xec, 0x3e,
  0x49, 0x1d, 0x6c, 0x3e, 0xe9, 0x11, 0x49, 0xbd, 0x39, 0x2c, 0xcc, 0x3d,
  0x89, 0x69, 0x92, 0xba, 0xb1, 0xff, 0xc3, 0x3b, 0x78, 0x17, 0x83, 0x3e,
  0x1f, 0xff, 0x81, 0xbf, 0x91, 0xf3, 0xae, 0xbe, 0xc8, 0xdf, 0x8d, 0x3c,
  0xd9, 0x1d, 0x9d, 0xbb, 0x5d, 0x3b, 0x00, 0xbd, 0xb5, 0x8a, 0xb1, 0xbc,
  0x21, 0x80, 0x18, 0xbc, 0xbb, 0xca, 0x83, 0xbc, 0xe5, 0xd4, 0x6f, 0xba,
  0x16, 0x5c, 0x04, 0x3c, 0xc4, 0xae, 0xac, 0xb9, 0x61, 0xb4, 0x9a, 0x3c,
  0xf9, 0xda, 0x80, 0xbe, 0x54, 0x10, 0x12, 0xbf, 0x1e, 0x67, 0xd7, 0x3e,
  0x4d, 0xf9, 0x4f, 0x3e, 0xc4, 0x78, 0x61, 0xbe, 0xfd, 0x22, 0x9d, 0x3e,
  0x32, 0x5c, 0x40, 0xbb, 0x4c, 0x38, 0xe2, 0xba, 0xce, 0x63, 0xc3, 0x3e,
  0x78, 0x98, 0x94, 0xbf, 0x27, 0x04, 0xb1, 0xbe, 0x83, 0x8e, 0x98, 0x3d,
  0x40, 0x13, 0x90, 0xbb, 0x64, 0x51, 0xdf, 0xbc, 0xe2, 0xcd, 0x20, 0xbc,
  0x3d, 0x74, 0xfb, 0xbb, 0xd6, 0x01, 0xaa, 0xbb, 0x2a, 0x2c, 0x28, 0x3b,
  0x20, 0x0e, 0x55, 0x3c, 0x0d, 0x34, 0xd7, 0x3c, 0x1a, 0x0c, 0xd5, 0x3c,
  0x15, 0x20, 0xa6, 0x3e, 0x65, 0xd7, 0x8a, 0x3e, 0x22, 0xeb, 0x7d, 0xbf,
  0x02, 0x11, 0x22, 0x3e, 0x78, 0x58, 0x0a, 0x3f, 0x8f, 0x5f, 0x67, 0xbd,
  0x60, 0x45, 0xac, 0xbb, 0xb8, 0x50, 0x8f, 0x39, 0xe6, 0xce, 0x47, 0xbd,
  0xba, 0xa1, 0xbe, 0xbe, 0xc6, 0xae, 0x29, 0x3e, 0x7b, 0xa9, 0xf6, 0xbd,
  0x2a, 0xd8, 0xf5, 0xbc, 0x5a, 0x2b, 0x6b, 0xbc, 0x59, 0xf5, 0x23, 0xbd,
  0x34, 0x11, 0x61, 0xbc, 0xeb, 0x9d, 0xdc, 0xbc, 0x63, 0x70, 0xce, 0xbc,
  0x38, 0xc5, 0x23, 0xbc, 0x90, 0x16, 0xb0, 0xbc, 0xc1, 0x49, 0x37, 0xbc,
  0x81, 0x3d, 0xee, 0xbd, 0x79, 0xf2, 0xd3, 0xbe, 0x71, 0x52, 0x6d, 0xbf,
  0x78, 0xfd, 0xf7, 0x3c, 0x00, 0x25, 0xee, 0x3e, 0x3d, 0xa4, 0x21, 0xbe,
  0x98, 0x1e, 0x33, 0x3b, 0x2c, 0x83, 0xac, 0x3c, 0xfb, 0xe6, 0x0a, 0x3f,
  0x26, 0xa4, 0x04, 0xbe, 0x51, 0x80, 0x0f, 0x3f, 0x45, 0xfc, 0x27, 0xbb,
  0xbd, 0xc5, 0x0b, 0x3e, 0x58, 0x74, 0xcc, 0xbc, 0x9d, 0xa0, 0x9a, 0x3d,
  0x81, 0x28, 0xe3, 0xbb, 0xd4, 0x98, 0x71, 0xbc, 0x5c, 0x32, 0x80, 0xbc,
  0x9e, 0x2e, 0x88, 0xbc, 0x09, 0xaf, 0x10, 0x3c, 0x52, 0xac, 0x3a, 0xbc,
  0x40, 0xe2, 0xdf, 0x3e, 0x51, 0xb5, 0x29, 0xbe, 0x63, 0x87, 0x23, 0xbf,
  0x9f, 0x0e, 0xf0, 0xbe, 0xfa, 0xfd, 0x86, 0x3f, 0x65, 0x96, 0x88, 0xbe,
  0x7d, 0xa1, 0xe4, 0x3b, 0xbb, 0xd2, 0x63, 0x3b, 0x0e, 0x3d, 0xb2, 0xbe,
  0x5b, 0x87, 0x82, 0xbe, 0x77, 0x89, 0x0e, 0x3f, 0x48, 0x37, 0x62, 0x3d,
  0x84, 0xe0, 0x7b, 0x3d, 0x5d, 0x0b, 0x04, 0x3e, 0xbb, 0xf3, 0x9d, 0xbc,
  0xf4, 0x5f, 0x14, 0x3b, 0xec, 0xde, 0xad, 0x3d, 0x48, 0x67, 0x3a, 0x3d,
  0x54, 0xfe, 0xc3, 0x3c, 0x9e, 0x77, 0x96, 0x3c, 0x69, 0xf8, 0x52, 0x3b,
  0x78, 0x8b, 0xb1, 0x3e, 0x7a, 0x9a, 0xfa, 0x3d, 0xbd, 0x5b, 0x28, 0xbf,
  0xcf, 0xbf, 0x40, 0xbe, 0x32, 0x7a, 0xbf, 0x3d, 0x0b, 0x4c, 0xb2, 0xbe,
  0xaa, 0xc6, 0x01, 0x3d, 0x79, 0xac, 0xcd, 0x3c, 0x21, 0x12, 0x3c, 0x3e,
  0x66, 0xc7, 0x11, 0xbe, 0xbc, 0x98, 0x39, 0x3f, 0x6a, 0x4e, 0x12, 0x3b,
  0x65, 0xc5, 0x23, 0x3e, 0x25, 0x4e, 0x92, 0x3d, 0xcb, 0xe8, 0x8d, 0x3d,
  0xe0, 0x7a, 0x0a, 0x3e, 0x10, 0x34, 0x52, 0x3d, 0x94, 0x20, 0x2e, 0x3c,
  0x30, 0x4c, 0xc5, 0x3d, 0x57, 0x1b, 0x3f, 0xbd, 0x0e, 0x02, 0xb3, 0xba,
  0xd3, 0x20, 0x04, 0x3f, 0xea, 0x59, 0x7a, 0xbf, 0x97, 0x81, 0x85, 0x3e,
  0x44, 0x2f, 0xbb, 0x3c, 0x2a, 0x76, 0xbc, 0x3d, 0x99, 0x7e, 0xb8, 0xbc,
  0x64, 0xdb, 0xf2, 0xbb, 0xbc, 0x9a, 0x13, 0x3c, 0x22, 0x77, 0x6a, 0xbd,
  0x95, 0xef, 0x57, 0xbf, 0x29, 0x2d, 0x64, 0xbe, 0x6b, 0xc2, 0xe2, 0x3d,
  0x1d, 0x1d, 0x10, 0x3c, 0x87, 0x17, 0xbd, 0xbc, 0xbf, 0x4e, 0x40, 0x3a,
  0x5e, 0x15, 0x9f, 0xbb, 0x76, 0x4a, 0xba, 0x3c, 0x8c, 0x04, 0xbd, 0x3b,
  0xa4, 0xcc, 0x6a, 0x3c, 0xe2, 0xaf, 0xe3, 0x3c, 0xa3, 0xd2, 0x5b, 0x3c,
  0xa5, 0xbe, 0x03, 0x3e, 0x72, 0x8a, 0x48, 0xbe, 0x10, 0x13, 0x27, 0xbf,
  0xf8, 0x7e, 0xb7, 0xbe, 0x32, 0x65, 0x6f, 0x3f, 0x23, 0x13, 0x37, 0x3d,
  0x1d, 0x82, 0x97, 0xbb, 0xca, 0x2a, 0x9f, 0xba, 0x3c, 0xef, 0x46, 0xbe,
  0xe0, 0x84, 0xb4, 0x3d, 0x8a, 0x21, 0x83, 0x3e, 0x0c, 0x80, 0xa8, 0xbc,
  0xfc, 0x21, 0x76, 0xbc, 0x38, 0xc8, 0xab, 0xbc, 0xab, 0xc5, 0x26, 0xbc,
  0x80, 0xa9, 0xdf, 0xbb, 0x32, 0xcb, 0xca, 0xbb, 0xad, 0x43, 0x08, 0x3c,
  0x00, 0xe2, 0xa8, 0xbb, 0x74, 0xf1, 0x4e, 0x3c, 0xd5, 0x44, 0xce, 0xbb,
  0x16, 0xf9, 0xff, 0xff, 0x04, 0x00, 0x00, 0x00, 0x40, 0x00, 0x00, 0x00,
  0x2d, 0x65, 0x30, 0x3f, 0xe5, 0x95, 0x31, 0x3f, 0x00, 0x58, 0xc7, 0x3e,
  0x19, 0xc9, 0x95, 0x3f, 0x6c, 0x5b, 0xe5, 0x3e, 0xfc, 0x65, 0x8c, 0x3e,
  0x73, 0xf5, 0xa6, 0x3d, 0x2e, 0x5b, 0x2a, 0x3e, 0xfc, 0xad, 0xfb, 0x3e,
  0x43, 0x00, 0x22, 0x3f, 0x82, 0x35, 0x81, 0xbe, 0x8b, 0x94, 0xe5, 0xbd,
  0xcc, 0x2c, 0xc3, 0xbd, 0xeb, 0x49, 0x86, 0xbe, 0x38, 0xec, 0xbc, 0xbe,
  0x83, 0xd0, 0xb1, 0x3b, 0x62, 0xf9, 0xff, 0xff, 0x04, 0x00, 0x00, 0x00,
  0x00, 0x02, 0x00, 0x00, 0xcc, 0x7d, 0x62, 0x3d, 0x82, 0x55, 0x08, 0x3e,
  0xfa, 0x15, 0x3c, 0x40, 0x3a, 0xaa, 0xd9, 0x3e, 0x74, 0x4b, 0xea, 0x3e,
  0x98, 0xc5, 0xcf, 0x3d, 0x37, 0x82, 0xcc, 0xbd, 0x42, 0x1a, 0x83, 0x40,
  0x79, 0x5e, 0xbe, 0xbf, 0xe0, 0x8d, 0x4f, 0xbf, 0x8a, 0xed, 0x79, 0x3f,
  0x41, 0x78, 0x46, 0x3f, 0x70, 0x55, 0x64, 0xbe, 0x3f, 0x80, 0x76, 0x3c,
  0xa1, 0x08, 0x84, 0xbe, 0x1f, 0x30, 0x6b, 0x3f, 0xd9, 0x01, 0x79, 0x3f,
  0xba, 0xf3, 0xbc, 0x3e, 0xd3, 0x11, 0xaa, 0xbe, 0xa5, 0x51, 0x5e, 0xbb,
  0x5a, 0x4d, 0xe7, 0x3e, 0xbc, 0xf1, 0x13, 0x3e, 0x76, 0x14, 0xae, 0x3e,
  0x6d, 0xe3, 0x19, 0xbf, 0x38, 0xce, 0x58, 0x3c, 0x8b, 0x5f, 0x1e, 0xbd,
  0xd9, 0x05, 0x1f, 0xc0, 0xe3, 0x26, 0x69, 0xbf, 0x0b, 0x5c, 0x48, 0xbf,
  0xe1, 0xfd, 0x77, 0xbe, 0x29, 0xb6, 0x05, 0xbd, 0x1f, 0xb5, 0x39, 0xc0,
  0x97, 0x38, 0x5d, 0xbc, 0x30, 0x5d, 0xb1, 0xbd, 0x2c, 0x70, 0xc6, 0x3f,
  0x2d, 0x58, 0x7c, 0x3d, 0x79, 0xb2, 0x21, 0x3f, 0xf6, 0x3b, 0xd2, 0x3d,
  0xd8, 0x84, 0xc6, 0x3c, 0x09, 0x73, 0x97, 0x3f, 0x43, 0xdd, 0xf8, 0x3d,
  0x9b, 0x7a, 0x87, 0x3d, 0x44, 0xde, 0x9e, 0xc0, 0x51, 0xe3, 0xab, 0xbf,
  0x1d, 0x2e, 0xca, 0xbf, 0xff, 0x71, 0x30, 0xbf, 0x7d, 0x54, 0x89, 0xbe,
  0xc9, 0xea, 0x55, 0xc0, 0x82, 0x3c, 0x27, 0x3f, 0xcd, 0x87, 0xaf, 0x3e,
  0x8b, 0x76, 0x02, 0x3e, 0xa4, 0xfe, 0x97, 0x3e, 0x85, 0xc7, 0xd0, 0x3d,
  0x1a, 0xb9, 0x5e, 0xbd, 0x37, 0xdb, 0xbb, 0x3e, 0x50, 0xfd, 0xeb, 0xbe,
  0x2c, 0x74, 0xcb, 0x3d, 0x54, 0xea, 0x44, 0xbf, 0xe7, 0xcf, 0xd7, 0xbf,
  0xf1, 0xa5, 0x27, 0x3f, 0x7b, 0x63, 0xe2, 0x3e, 0xc6, 0x88, 0x02, 0x3e,
  0x3c, 0x51, 0x06, 0xbf, 0x16, 0xfc, 0xf9, 0x3f, 0x23, 0xed, 0xba, 0x3e,
  0xb6, 0xbc, 0xc1, 0xbb, 0xbd, 0x52, 0x59, 0x40, 0x77, 0xaa, 0x2b, 0x3f,
  0x33, 0xb7, 0xa1, 0x3e, 0xe6, 0x75, 0x49, 0x3e, 0xea, 0x3b, 0x08, 0xbe,
  0x5b, 0x0d, 0x29, 0x40, 0xb8, 0x3c, 0x5b, 0x3d, 0x14, 0x35, 0xd1, 0xbb,
  0x25, 0x8a, 0x07, 0x40, 0x6e, 0xff, 0x03, 0x3f, 0x8b, 0x48, 0x1c, 0x3f,
  0xab, 0x67, 0x20, 0x3e, 0x56, 0x09, 0x65, 0x39, 0xc6, 0xfe, 0x21, 0x40,
  0xe2, 0xe2, 0xe7, 0xbe, 0x26, 0x4d, 0x8c, 0xbe, 0x69, 0x70, 0x0c, 0x40,
  0x47, 0xe1, 0x98, 0x3e, 0x5a, 0xdd, 0x17, 0x3f, 0x6e, 0x18, 0x16, 0x3e,
  0xd1, 0xd2, 0x33, 0x3f, 0xed, 0xf1, 0x5f, 0x40, 0xbf, 0x79, 0x52, 0x3f,
  0x19, 0x5b, 0x26, 0x3f, 0x16, 0x0c, 0x43, 0xbe, 0xdd, 0xda, 0x1e, 0xbe,
  0x96, 0x84, 0x54, 0xbe, 0x15, 0x9e, 0xf2, 0x3c, 0x79, 0xfb, 0x1c, 0x3f,
  0x23, 0xd5, 0x71, 0x3f, 0xc7, 0x6a, 0x2a, 0xbf, 0xd1, 0x90, 0xba, 0x3e,
  0xa9, 0x91, 0x26, 0x3f, 0xab, 0xd2, 0x32, 0x3f, 0x60, 0x48, 0x96, 0x3e,
  0x5a, 0xa4, 0x19, 0x3e, 0x83, 0xa3, 0x4b, 0xbf, 0x89, 0xd1, 0x33, 0xbf,
  0x2f, 0x26, 0x88, 0x3f, 0x29, 0xba, 0x43, 0x3f, 0xb4, 0xd7, 0x2b, 0x3f,
  0x79, 0xf1, 0xd9, 0xbe, 0xb9, 0x79, 0x0b, 0x3e, 0xf7, 0x25, 0x5d, 0xbe,
  0x7f, 0xcb, 0x30, 0x3f, 0x92, 0xad, 0x80, 0x3c, 0x66, 0xb7, 0x9e, 0x3f,
  0xb1, 0xb6, 0x4a, 0x3f, 0x84, 0x07, 0x83, 0x3f, 0x6e, 0x65, 0x9f, 0x3e,
  0xc9, 0x88, 0xaf, 0xbe, 0x4e, 0x78, 0x83, 0xbd, 0x8c, 0xe4, 0x42, 0x3f,
  0x37, 0xb6, 0x5b, 0x3f, 0x13, 0xce, 0x7f, 0xbe, 0x2a, 0x1f, 0x97, 0xbe,
  0x2b, 0xd0, 0x4d, 0xbe, 0x0c, 0x98, 0x82, 0x3f, 0x11, 0x7f, 0x3b, 0x3f,
  0xf4, 0x89, 0xf3, 0x3e, 0xb5, 0x84, 0x43, 0xbe, 0x12, 0x73, 0x8d, 0xbf,
  0x6e, 0xfb, 0xff, 0xff, 0x04, 0x00, 0x00, 0x00, 0x20, 0x00, 0x00, 0x00,
  0xe9, 0x0c, 0xbe, 0x3f, 0xbe, 0xd2, 0x18, 0xbe, 0x60, 0xe6, 0x94, 0x3f,
  0x42, 0xc4, 0x13, 0x3f, 0x64, 0xcb, 0x89, 0x3f, 0x4d, 0x6e, 0xa2, 0x3f,
  0x83, 0xb2, 0xc8, 0x3f, 0x82, 0x96, 0xe1, 0x3f, 0x9a, 0xfb, 0xff, 0xff,
  0x04, 0x00, 0x00, 0x00, 0x00, 0x02, 0x00, 0x00, 0x5a, 0xc8, 0x06, 0xbe,
  0x0f, 0xee, 0x0e, 0x3e, 0xbb, 0x74, 0x84, 0xbe, 0x2c, 0x78, 0x65, 0x3e,
  0x8a, 0xde, 0x25, 0xbe, 0x02, 0x90, 0x97, 0x3d, 0xbe, 0x2c, 0x4e, 0xbf,
  0x39, 0x20, 0xaf, 0x3e, 0x5b, 0x57, 0xf3, 0xbd, 0x7d, 0xd0, 0x02, 0xbe,
  0xe4, 0x8a, 0x3b, 0xbe, 0xbe, 0xee, 0xac, 0xbe, 0x4c, 0xbe, 0x61, 0x3e,
  0x38, 0x51, 0xc5, 0xbe, 0x02, 0xf3, 0x75, 0xbe, 0xe8, 0x0c, 0x70, 0xbe,
  0x77, 0x1a, 0x89, 0xbc, 0xbb, 0x87, 0x72, 0xbd, 0x0f, 0xe1, 0x02, 0x3f,
  0x72, 0x7c, 0xa7, 0xbd, 0xf5, 0xb3, 0xa5, 0xbe, 0x38, 0x02, 0x76, 0x3e,
  0x68, 0x4d, 0x02, 0x3f, 0xa4, 0xa6, 0xa1, 0x3d, 0xcb, 0xc8, 0xb1, 0x3d,
  0xc2, 0x76, 0xb0, 0x3d, 0xab, 0x99, 0x47, 0x3e, 0xa1, 0xbf, 0x8d, 0x3e,
  0x91, 0xb0, 0x28, 0x3e, 0x58, 0xee, 0xa0, 0x3e, 0x3b, 0xa1, 0xb4, 0x3e,
  0x3b, 0x9a, 0x98, 0xbd, 0x41, 0xfe, 0xd2, 0xbe, 0x25, 0x99, 0xfa, 0xbc,
  0x6a, 0xb3, 0xb1, 0x3d, 0xf7, 0x9d, 0x29, 0x3f, 0x1a, 0x4b, 0x65, 0xbe,
  0xe6, 0x9e, 0xbb, 0xbe, 0x35, 0xd4, 0x10, 0xbd, 0x27, 0x43, 0xc3, 0xbd,
  0x78, 0x64, 0xa9, 0xbe, 0x08, 0x8c, 0x60, 0xbf, 0xff, 0x9e, 0xbf, 0xbe,
  0x81, 0xe5, 0x6f, 0xbc, 0xbf, 0xd4, 0xa9, 0xbe, 0xe3, 0x63, 0x8e, 0xbd,
  0x70, 0x76, 0xa7, 0x3c, 0x9c, 0x99, 0x06, 0xbf, 0x90, 0xe7, 0x71, 0xbe,
  0x5e, 0xe0, 0x86, 0xbe, 0x43, 0x86, 0x1d, 0x3e, 0xca, 0x3a, 0x03, 0x3f,
  0x9e, 0x2a, 0x93, 0xbe, 0x36, 0xfa, 0x00, 0x3d, 0x40, 0xbe, 0xc0, 0x3d,
  0x37, 0x8b, 0x1b, 0xbf, 0x70, 0x9f, 0xbf, 0xbe, 0xbb, 0x58, 0x9f, 0xbe,
  0xc2, 0xaa, 0x4d, 0xbd, 0x1e, 0xb2, 0xb8, 0x3d, 0xeb, 0x03, 0x0e, 0xbf,
  0xa2, 0x91, 0x0f, 0x3d, 0x81, 0x12, 0x21, 0xbd, 0x9b, 0x60, 0xd8, 0xbe,
  0x2c, 0x78, 0x28, 0x3d, 0x3f, 0x11, 0x12, 0x3e, 0x96, 0x8d, 0xa2, 0xbe,
  0xd2, 0x33, 0xe7, 0xbe, 0x04, 0x08, 0x91, 0x3e, 0xbf, 0x49, 0x01, 0xc0,
  0xc4, 0x46, 0x21, 0xbf, 0xfc, 0x7c, 0xc9, 0x3d, 0x98, 0x93, 0x24, 0xbe,
  0x4f, 0x96, 0xd9, 0x3c, 0xe8, 0x0b, 0x3a, 0xbe, 0xf9, 0x0d, 0xc5, 0xbe,
  0x2c, 0xec, 0xd2, 0x3d, 0xa3, 0x7b, 0x54, 0xbe, 0xe2, 0x83, 0x57, 0xbc,
  0x3f, 0x7f, 0x92, 0x3d, 0xaf, 0xf0, 0xf4, 0xbd, 0xd5, 0x59, 0x81, 0x3d,
  0x05, 0x27, 0xac, 0xbe, 0x53, 0x53, 0x81, 0x3e, 0xa8, 0xf6, 0x1b, 0xbe,
  0xa4, 0x85, 0x2e, 0x3e, 0xad, 0x2d, 0xb0, 0xbe, 0xee, 0xde, 0x68, 0xbe,
  0x69, 0x2e, 0xa2, 0xbe, 0x37, 0xed, 0x88, 0xbd, 0xa3, 0x69, 0x16, 0xbe,
  0x68, 0x75, 0xae, 0xbe, 0x5a, 0x59, 0xa7, 0xbc, 0x95, 0x05, 0x3a, 0xbe,
  0x89, 0x28, 0x96, 0xbe, 0xf4, 0x92, 0x4d, 0xbe, 0x3c, 0xac, 0x30, 0xbb,
  0xb7, 0xc0, 0xc2, 0xbd, 0x31, 0x8f, 0x18, 0xbf, 0xf4, 0x8c, 0x15, 0x3d,
  0xf6, 0x83, 0xc3, 0x3c, 0x24, 0x64, 0xef, 0xbd, 0xd7, 0x6c, 0xe1, 0xbe,
  0xcc, 0x45, 0x9b, 0xbd, 0xa2, 0x58, 0x8a, 0x3d, 0x8b, 0x7c, 0x17, 0xbe,
  0xbb, 0x04, 0xec, 0x3c, 0x61, 0xa5, 0xb5, 0xbe, 0xdd, 0xb9, 0x45, 0xbe,
  0xb5, 0x37, 0xd7, 0xbe, 0xaa, 0x2e, 0x01, 0xbf, 0x59, 0xc3, 0x8a, 0xbd,
  0xd8, 0x5b, 0x89, 0xbe, 0x00, 0x09, 0xe6, 0xbd, 0x7c, 0xfe, 0xd6, 0xbd,
  0x76, 0x37, 0xd7, 0xbc, 0x71, 0x4a, 0x4d, 0xbe, 0x57, 0x9e, 0xe1, 0x3e,
  0x15, 0x42, 0x2e, 0xbd, 0x02, 0x7e, 0x2d, 0xbe, 0x60, 0x8e, 0xa1, 0xbd,
  0xbe, 0xc2, 0xee, 0xbe, 0x2f, 0xef, 0x21, 0xbe, 0xb8, 0x56, 0x41, 0xbd,
  0xe8, 0x92, 0xb7, 0xbe, 0x9c, 0x16, 0x9c, 0x3c, 0xa4, 0x0e, 0x03, 0xbc,
  0xdc, 0x81, 0x2b, 0xbd, 0xa6, 0xfd, 0xff, 0xff, 0x04, 0x00, 0x00, 0x00,
  0x0c, 0x00, 0x00, 0x00, 0x1a, 0xe9, 0xea, 0xbe, 0x75, 0x09, 0xca, 0xbf,
  0x9b, 0x92, 0x8d, 0x40, 0xbe, 0xfd, 0xff, 0xff, 0x04, 0x00, 0x00, 0x00,
  0x60, 0x00, 0x00, 0x00, 0xe6, 0x23, 0xd1, 0xbf, 0x76, 0x91, 0xfe, 0x3e,
  0xc1, 0x3d, 0xa0, 0x3f, 0xc0, 0x7c, 0xca, 0x3f, 0xab, 0x47, 0x27, 0xbf,
  0xfa, 0x01, 0xc2, 0xbf, 0x8c, 0xf7, 0xec, 0xbf, 0xa1, 0xd9, 0xfa, 0x3f,
  0xc4, 0x59, 0x22, 0x3f, 0x88, 0x4c, 0x49, 0xbf, 0xc6, 0x28, 0x99, 0x3f,
  0x63, 0xa1, 0x35, 0xbf, 0x53, 0x11, 0x4a, 0xbf, 0xea, 0xab, 0x93, 0x3f,
  0xf1, 0x7a, 0x5e, 0x3f, 0xd5, 0x94, 0x00, 0x40, 0x01, 0x9e, 0xb4, 0xbe,
  0x58, 0x9b, 0x1a, 0x3f, 0xdb, 0x66, 0x79, 0xc0, 0x76, 0x80, 0xb7, 0xbf,
  0xbe, 0x1d, 0xd9, 0x3f, 0x1d, 0x92, 0xeb, 0xbf, 0x81, 0xea, 0x04, 0x3f,
  0x1a, 0x84, 0x69, 0xc0, 0x8c, 0xf6, 0xff, 0xff, 0x90, 0xf6, 0xff, 0xff,
  0x0f, 0x00, 0x00, 0x00, 0x4d, 0x4c, 0x49, 0x52, 0x20, 0x43, 0x6f, 0x6e,
  0x76, 0x65, 0x72, 0x74, 0x65, 0x64, 0x2e, 0x00, 0x01, 0x00, 0x00, 0x00,
  0x14, 0x00, 0x00, 0x00, 0x00, 0x00, 0x0e, 0x00, 0x18, 0x00, 0x14, 0x00,
  0x10, 0x00, 0x0c, 0x00, 0x08, 0x00, 0x04, 0x00, 0x0e, 0x00, 0x00, 0x00,
  0x14, 0x00, 0x00, 0x00, 0x1c, 0x00, 0x00, 0x00, 0xf4, 0x01, 0x00, 0x00,
  0xf8, 0x01, 0x00, 0x00, 0xfc, 0x01, 0x00, 0x00, 0x04, 0x00, 0x00, 0x00,
  0x6d, 0x61, 0x69, 0x6e, 0x00, 0x00, 0x00, 0x00, 0x08, 0x00, 0x00, 0x00,
  0xa8, 0x01, 0x00, 0x00, 0x5c, 0x01, 0x00, 0x00, 0x18, 0x01, 0x00, 0x00,
  0xe4, 0x00, 0x00, 0x00, 0xa0, 0x00, 0x00, 0x00, 0x6c, 0x00, 0x00, 0x00,
  0x38, 0x00, 0x00, 0x00, 0x04, 0x00, 0x00, 0x00, 0x3e, 0xff, 0xff, 0xff,
  0x14, 0x00, 0x00, 0x00, 0x00, 0x00, 0x00, 0x09, 0x14, 0x00, 0x00, 0x00,
  0x18, 0x00, 0x00, 0x00, 0x02, 0x00, 0x00, 0x00, 0xbe, 0xfe, 0xff, 0xff,
  0x00, 0x00, 0x80, 0x3f, 0x01, 0x00, 0x00, 0x00, 0x10, 0x00, 0x00, 0x00,
  0x01, 0x00, 0x00, 0x00, 0x0f, 0x00, 0x00, 0x00, 0xb6, 0xfe, 0xff, 0xff,
  0x10, 0x00, 0x00, 0x00, 0x00, 0x00, 0x00, 0x08, 0x0c, 0x00, 0x00, 0x00,
  0x10, 0x00, 0x00, 0x00, 0x4c, 0xf7, 0xff, 0xff, 0x01, 0x00, 0x00, 0x00,
  0x0f, 0x00, 0x00, 0x00, 0x03, 0x00, 0x00, 0x00, 0x0e, 0x00, 0x00, 0x00,
  0x01, 0x00, 0x00, 0x00, 0x02, 0x00, 0x00, 0x00, 0x9e, 0xff, 0xff, 0xff,
  0x14, 0x00, 0x00, 0x00, 0x00, 0x00, 0x00, 0x4b, 0x14, 0x00, 0x00, 0x00,
  0x18, 0x00, 0x00, 0x00, 0x01, 0x00, 0x00, 0x00, 0x1e, 0xff, 0xff, 0xff,
  0xcd, 0xcc, 0x4c, 0x3d, 0x01, 0x00, 0x00, 0x00, 0x0e, 0x00, 0x00, 0x00,
  0x01, 0x00, 0x00, 0x00, 0x0d, 0x00, 0x00, 0x00, 0x16, 0xff, 0xff, 0xff,
  0x10, 0x00, 0x00, 0x00, 0x00, 0x00, 0x00, 0x08, 0x0c, 0x00, 0x00, 0x00,
  0x10, 0x00, 0x00, 0x00, 0xac, 0xf7, 0xff, 0xff, 0x01, 0x00, 0x00, 0x00,
  0x0d, 0x00, 0x00, 0x00, 0x03, 0x00, 0x00, 0x00, 0x0c, 0x00, 0x00, 0x00,
  0x03, 0x00, 0x00, 0x00, 0x04, 0x00, 0x00, 0x00, 0x00, 0x00, 0x0e, 0x00,
  0x18, 0x00, 0x14, 0x00, 0x10, 0x00, 0x0c, 0x00, 0x0b, 0x00, 0x04, 0x00,
  0x0e, 0x00, 0x00, 0x00, 0x14, 0x00, 0x00, 0x00, 0x00, 0x00, 0x00, 0x4b,
  0x14, 0x00, 0x00, 0x00, 0x18, 0x00, 0x00, 0x00, 0x01, 0x00, 0x00, 0x00,
  0x8e, 0xff, 0xff, 0xff, 0xcd, 0xcc, 0x4c, 0x3d, 0x01, 0x00, 0x00, 0x00,
  0x0c, 0x00, 0x00, 0x00, 0x01, 0x00, 0x00, 0x00, 0x0b, 0x00, 0x00, 0x00,
  0x86, 0xff, 0xff, 0xff, 0x10, 0x00, 0x00, 0x00, 0x00, 0x00, 0x00, 0x08,
  0x0c, 0x00, 0x00, 0x00, 0x10, 0x00, 0x00, 0x00, 0x1c, 0xf8, 0xff, 0xff,
  0x01, 0x00, 0x00, 0x00, 0x0b, 0x00, 0x00, 0x00, 0x03, 0x00, 0x00, 0x00,
  0x0a, 0x00, 0x00, 0x00, 0x05, 0x00, 0x00, 0x00, 0x06, 0x00, 0x00, 0x00,
  0x00, 0x00, 0x0e, 0x00, 0x1a, 0x00, 0x14, 0x00, 0x10, 0x00, 0x0c, 0x00,
  0x0b, 0x00, 0x04, 0x00, 0x0e, 0x00, 0x00, 0x00, 0x1c, 0x00, 0x00, 0x00,
  0x00, 0x00, 0x00, 0x4b, 0x1c, 0x00, 0x00, 0x00, 0x20, 0x00, 0x00, 0x00,
  0x01, 0x00, 0x00, 0x00, 0x00, 0x00, 0x06, 0x00, 0x08, 0x00, 0x04, 0x00,
  0x06, 0x00, 0x00, 0x00, 0xcd, 0xcc, 0x4c, 0x3d, 0x01, 0x00, 0x00, 0x00,
  0x0a, 0x00, 0x00, 0x00, 0x01, 0x00, 0x00, 0x00, 0x09, 0x00, 0x00, 0x00,
  0x00, 0x00, 0x0e, 0x00, 0x14, 0x00, 0x00, 0x00, 0x10, 0x00, 0x0c, 0x00,
  0x0b, 0x00, 0x04, 0x00, 0x0e, 0x00, 0x00, 0x00, 0x10, 0x00, 0x00, 0x00,
  0x00, 0x00, 0x00, 0x08, 0x0c, 0x00, 0x00, 0x00, 0x10, 0x00, 0x00, 0x00,
  0xa4, 0xf8, 0xff, 0xff, 0x01, 0x00, 0x00, 0x00, 0x09, 0x00, 0x00, 0x00,
  0x03, 0x00, 0x00, 0x00, 0x00, 0x00, 0x00, 0x00, 0x07, 0x00, 0x00, 0x00,
  0x08, 0x00, 0x00, 0x00, 0x01, 0x00, 0x00, 0x00, 0x10, 0x00, 0x00, 0x00,
  0x01, 0x00, 0x00, 0x00, 0x00, 0x00, 0x00, 0x00, 0x11, 0x00, 0x00, 0x00,
  0x04, 0x07, 0x00, 0x00, 0xac, 0x06, 0x00, 0x00, 0x58, 0x06, 0x00, 0x00,
  0x18, 0x06, 0x00, 0x00, 0xdc, 0x05, 0x00, 0x00, 0x9c, 0x05, 0x00, 0x00,
  0x60, 0x05, 0x00, 0x00, 0x14, 0x05, 0x00, 0x00, 0xc8, 0x04, 0x00, 0x00,
  0x4c, 0x04, 0x00, 0x00, 0xe4, 0x03, 0x00, 0x00, 0x00, 0x03, 0x00, 0x00,
  0x98, 0x02, 0x00, 0x00, 0xb0, 0x01, 0x00, 0x00, 0x48, 0x01, 0x00, 0x00,
  0x60, 0x00, 0x00, 0x00, 0x04, 0x00, 0x00, 0x00, 0x56, 0xf9, 0xff, 0xff,
  0x00, 0x00, 0x00, 0x01, 0x14, 0x00, 0x00, 0x00, 0x1c, 0x00, 0x00, 0x00,
  0x1c, 0x00, 0x00, 0x00, 0x11, 0x00, 0x00, 0x00, 0x34, 0x00, 0x00, 0x00,
  0x02, 0x00, 0x00, 0x00, 0xff, 0xff, 0xff, 0xff, 0x03, 0x00, 0x00, 0x00,
  0x40, 0xf9, 0xff, 0xff, 0x1b, 0x00, 0x00, 0x00, 0x53, 0x74, 0x61, 0x74,
  0x65, 0x66, 0x75, 0x6c, 0x50, 0x61, 0x72, 0x74, 0x69, 0x74, 0x69, 0x6f,
  0x6e, 0x65, 0x64, 0x43, 0x61, 0x6c, 0x6c, 0x5f, 0x31, 0x3a, 0x30, 0x00,
  0x02, 0x00, 0x00, 0x00, 0x01, 0x00, 0x00, 0x00, 0x03, 0x00, 0x00, 0x00,
  0xae, 0xf9, 0xff, 0xff, 0x00, 0x00, 0x00, 0x01, 0x14, 0x00, 0x00, 0x00,
  0x1c, 0x00, 0x00, 0x00, 0x1c, 0x00, 0x00, 0x00, 0x10, 0x00, 0x00, 0x00,
  0xc0, 0x00, 0x00, 0x00, 0x02, 0x00, 0x00, 0x00, 0xff, 0xff, 0xff, 0xff,
  0x03, 0x00, 0x00, 0x00, 0x98, 0xf9, 0xff, 0xff, 0xa6, 0x00, 0x00, 0x00,
  0x73, 0x65, 0x71, 0x75, 0x65, 0x6e, 0x74, 0x69, 0x61, 0x6c, 0x5f, 0x31,
  0x2f, 0x62, 0x61, 0x74, 0x63, 0x68, 0x5f, 0x6e, 0x6f, 0x72, 0x6d, 0x61,
  0x6c, 0x69, 0x7a, 0x61, 0x74, 0x69, 0x6f, 0x6e, 0x5f, 0x32, 0x5f, 0x31,
  0x2f, 0x62, 0x61, 0x74, 0x63, 0x68, 0x6e, 0x6f, 0x72, 0x6d, 0x2f, 0x6d,
  0x75, 0x6c, 0x5f, 0x31, 0x3b, 0x73, 0x65, 0x71, 0x75, 0x65, 0x6e, 0x74,
  0x69, 0x61, 0x6c, 0x5f, 0x31, 0x2f, 0x62, 0x61, 0x74, 0x63, 0x68, 0x5f,
  0x6e, 0x6f, 0x72, 0x6d, 0x61, 0x6c, 0x69, 0x7a, 0x61, 0x74, 0x69, 0x6f,
  0x6e, 0x5f, 0x32, 0x5f, 0x31, 0x2f, 0x62, 0x61, 0x74, 0x63, 0x68, 0x6e,
  0x6f, 0x72, 0x6d, 0x2f, 0x61, 0x64, 0x64, 0x5f, 0x31, 0x3b, 0x73, 0x65,
  0x71, 0x75, 0x65, 0x6e, 0x74, 0x69, 0x61, 0x6c, 0x5f, 0x31, 0x2f, 0x64,
  0x65, 0x6e, 0x73, 0x65, 0x5f, 0x33, 0x5f, 0x31, 0x2f, 0x4d, 0x61, 0x74,
  0x4d, 0x75, 0x6c, 0x3b, 0x73, 0x65, 0x71, 0x75, 0x65, 0x6e, 0x74, 0x69,
  0x61, 0x6c, 0x5f, 0x31, 0x2f, 0x64, 0x65, 0x6e, 0x73, 0x65, 0x5f, 0x33,
  0x5f, 0x31, 0x2f, 0x42, 0x69, 0x61, 0x73, 0x41, 0x64, 0x64, 0x00, 0x00,
  0x02, 0x00, 0x00, 0x00, 0x01, 0x00, 0x00, 0x00, 0x03, 0x00, 0x00, 0x00,
  0x92, 0xfa, 0xff, 0xff, 0x00, 0x00, 0x00, 0x01, 0x14, 0x00, 0x00, 0x00,
  0x1c, 0x00, 0x00, 0x00, 0x1c, 0x00, 0x00, 0x00, 0x0f, 0x00, 0x00, 0x00,
  0x40, 0x00, 0x00, 0x00, 0x02, 0x00, 0x00, 0x00, 0xff, 0xff, 0xff, 0xff,
  0x08, 0x00, 0x00, 0x00, 0x7c, 0xfa, 0xff, 0xff, 0x26, 0x00, 0x00, 0x00,
  0x73, 0x65, 0x71, 0x75, 0x65, 0x6e, 0x74, 0x69, 0x61, 0x6c, 0x5f, 0x31,
  0x2f, 0x6c, 0x65, 0x61, 0x6b, 0x79, 0x5f, 0x72, 0x65, 0x5f, 0x6c, 0x75,
  0x5f, 0x32, 0x5f, 0x31, 0x2f, 0x4c, 0x65, 0x61, 0x6b, 0x79, 0x52, 0x65,
  0x6c, 0x75, 0x00, 0x00, 0x02, 0x00, 0x00, 0x00, 0x01, 0x00, 0x00, 0x00,
  0x08, 0x00, 0x00, 0x00, 0xf6, 0xfa, 0xff, 0xff, 0x00, 0x00, 0x00, 0x01,
  0x14, 0x00, 0x00, 0x00, 0x1c, 0x00, 0x00, 0x00, 0x1c, 0x00, 0x00, 0x00,
  0x0e, 0x00, 0x00, 0x00, 0xc0, 0x00, 0x00, 0x00, 0x02, 0x00, 0x00, 0x00,
  0xff, 0xff, 0xff, 0xff, 0x08, 0x00, 0x00, 0x00, 0xe0, 0xfa, 0xff, 0xff,
  0xa6, 0x00, 0x00, 0x00, 0x73, 0x65, 0x71, 0x75, 0x65, 0x6e, 0x74, 0x69,
  0x61, 0x6c, 0x5f, 0x31, 0x2f, 0x62, 0x61, 0x74, 0x63, 0x68, 0x5f, 0x6e,
  0x6f, 0x72, 0x6d, 0x61, 0x6c, 0x69, 0x7a, 0x61, 0x74, 0x69, 0x6f, 0x6e,
  0x5f, 0x31, 0x5f, 0x32, 0x2f, 0x62, 0x61, 0x74, 0x63, 0x68, 0x6e, 0x6f,
  0x72, 0x6d, 0x2f, 0x6d, 0x75, 0x6c, 0x5f, 0x31, 0x3b, 0x73, 0x65, 0x71,
  0x75, 0x65, 0x6e, 0x74, 0x69, 0x61, 0x6c, 0x5f, 0x31, 0x2f, 0x62, 0x61,
  0x74, 0x63, 0x68, 0x5f, 0x6e, 0x6f, 0x72, 0x6d, 0x61, 0x6c, 0x69, 0x7a,
  0x61, 0x74, 0x69, 0x6f, 0x6e, 0x5f, 0x31, 0x5f, 0x32, 0x2f, 0x62, 0x61,
  0x74, 0x63, 0x68, 0x6e, 0x6f, 0x72, 0x6d, 0x2f, 0x61, 0x64, 0x64, 0x5f,
  0x31, 0x3b, 0x73, 0x65, 0x71, 0x75, 0x65, 0x6e, 0x74, 0x69, 0x61, 0x6c,
  0x5f, 0x31, 0x2f, 0x64, 0x65, 0x6e, 0x73, 0x65, 0x5f, 0x32, 0x5f, 0x31,
  0x2f, 0x4d, 0x61, 0x74, 0x4d, 0x75, 0x6c, 0x3b, 0x73, 0x65, 0x71, 0x75,
  0x65, 0x6e, 0x74, 0x69, 0x61, 0x6c, 0x5f, 0x31, 0x2f, 0x64, 0x65, 0x6e,
  0x73, 0x65, 0x5f, 0x32, 0x5f, 0x31, 0x2f, 0x42, 0x69, 0x61, 0x73, 0x41,
  0x64, 0x64, 0x00, 0x00, 0x02, 0x00, 0x00, 0x00, 0x01, 0x00, 0x00, 0x00,
  0x08, 0x00, 0x00, 0x00, 0xda, 0xfb, 0xff, 0xff, 0x00, 0x00, 0x00, 0x01,
  0x14, 0x00, 0x00, 0x00, 0x1c, 0x00, 0x00, 0x00, 0x1c, 0x00, 0x00, 0x00,
  0x0d, 0x00, 0x00, 0x00, 0x40, 0x00, 0x00, 0x00, 0x02, 0x00, 0x00, 0x00,
  0xff, 0xff, 0xff, 0xff, 0x10, 0x00, 0x00, 0x00, 0xc4, 0xfb, 0xff, 0xff,
  0x26, 0x00, 0x00, 0x00, 0x73, 0x65, 0x71, 0x75, 0x65, 0x6e, 0x74, 0x69,
  0x61, 0x6c, 0x5f, 0x31, 0x2f, 0x6c, 0x65, 0x61, 0x6b, 0x79, 0x5f, 0x72,
  0x65, 0x5f, 0x6c, 0x75, 0x5f, 0x31, 0x5f, 0x32, 0x2f, 0x4c, 0x65, 0x61,
  0x6b, 0x79, 0x52, 0x65, 0x6c, 0x75, 0x00, 0x00, 0x02, 0x00, 0x00, 0x00,
  0x01, 0x00, 0x00, 0x00, 0x10, 0x00, 0x00, 0x00, 0x3e, 0xfc, 0xff, 0xff,
  0x00, 0x00, 0x00, 0x01, 0x14, 0x00, 0x00, 0x00, 0x1c, 0x00, 0x00, 0x00,
  0x1c, 0x00, 0x00, 0x00, 0x0c, 0x00, 0x00, 0x00, 0xbc, 0x00, 0x00, 0x00,
  0x02, 0x00, 0x00, 0x00, 0xff, 0xff, 0xff, 0xff, 0x10, 0x00, 0x00, 0x00,
  0x28, 0xfc, 0xff, 0xff, 0xa2, 0x00, 0x00, 0x00, 0x73, 0x65, 0x71, 0x75,
  0x65, 0x6e, 0x74, 0x69, 0x61, 0x6c, 0x5f, 0x31, 0x2f, 0x62, 0x61, 0x74,
  0x63, 0x68, 0x5f, 0x6e, 0x6f, 0x72, 0x6d, 0x61, 0x6c, 0x69, 0x7a, 0x61,
  0x74, 0x69, 0x6f, 0x6e, 0x5f, 0x31, 0x2f, 0x62, 0x61, 0x74, 0x63, 0x68,
  0x6e, 0x6f, 0x72, 0x6d, 0x2f, 0x6d, 0x75, 0x6c, 0x5f, 0x31, 0x3b, 0x73,
  0x65, 0x71, 0x75, 0x65, 0x6e, 0x74, 0x69, 0x61, 0x6c, 0x5f, 0x31, 0x2f,
  0x62, 0x61, 0x74, 0x63, 0x68, 0x5f, 0x6e, 0x6f, 0x72, 0x6d, 0x61, 0x6c,
  0x69, 0x7a, 0x61, 0x74, 0x69, 0x6f, 0x6e, 0x5f, 0x31, 0x2f, 0x62, 0x61,
  0x74, 0x63, 0x68, 0x6e, 0x6f, 0x72, 0x6d, 0x2f, 0x61, 0x64, 0x64, 0x5f,
  0x31, 0x3b, 0x73, 0x65, 0x71, 0x75, 0x65, 0x6e, 0x74, 0x69, 0x61, 0x6c,
  0x5f, 0x31, 0x2f, 0x64, 0x65, 0x6e, 0x73, 0x65, 0x5f, 0x31, 0x5f, 0x32,
  0x2f, 0x4d, 0x61, 0x74, 0x4d, 0x75, 0x6c, 0x3b, 0x73, 0x65, 0x71, 0x75,
  0x65, 0x6e, 0x74, 0x69, 0x61, 0x6c, 0x5f, 0x31, 0x2f, 0x64, 0x65, 0x6e,
  0x73, 0x65, 0x5f, 0x31, 0x5f, 0x32, 0x2f, 0x42, 0x69, 0x61, 0x73, 0x41,
  0x64, 0x64, 0x00, 0x00, 0x02, 0x00, 0x00, 0x00, 0x01, 0x00, 0x00, 0x00,
  0x10, 0x00, 0x00, 0x00, 0x1e, 0xfd, 0xff, 0xff, 0x00, 0x00, 0x00, 0x01,
  0x14, 0x00, 0x00, 0x00, 0x1c, 0x00, 0x00, 0x00, 0x1c, 0x00, 0x00, 0x00,
  0x0b, 0x00, 0x00, 0x00, 0x40, 0x00, 0x00, 0x00, 0x02, 0x00, 0x00, 0x00,
  0xff, 0xff, 0xff, 0xff, 0x08, 0x00, 0x00, 0x00, 0x08, 0xfd, 0xff, 0xff,
  0x24, 0x00, 0x00, 0x00, 0x73, 0x65, 0x71, 0x75, 0x65, 0x6e, 0x74, 0x69,
  0x61, 0x6c, 0x5f, 0x31, 0x2f, 0x6c, 0x65, 0x61, 0x6b, 0x79, 0x5f, 0x72,
  0x65, 0x5f, 0x6c, 0x75, 0x5f, 0x31, 0x2f, 0x4c, 0x65, 0x61, 0x6b, 0x79,
  0x52, 0x65, 0x6c, 0x75, 0x00, 0x00, 0x00, 0x00, 0x02, 0x00, 0x00, 0x00,
  0x01, 0x00, 0x00, 0x00, 0x08, 0x00, 0x00, 0x00, 0x82, 0xfd, 0xff, 0xff,
  0x00, 0x00, 0x00, 0x01, 0x14, 0x00, 0x00, 0x00, 0x1c, 0x00, 0x00, 0x00,
  0x1c, 0x00, 0x00, 0x00, 0x0a, 0x00, 0x00, 0x00, 0x54, 0x00, 0x00, 0x00,
  0x02, 0x00, 0x00, 0x00, 0xff, 0xff, 0xff, 0xff, 0x08, 0x00, 0x00, 0x00,
  0x6c, 0xfd, 0xff, 0xff, 0x38, 0x00, 0x00, 0x00, 0x73, 0x65, 0x71, 0x75,
  0x65, 0x6e, 0x74, 0x69, 0x61, 0x6c, 0x5f, 0x31, 0x2f, 0x64, 0x65, 0x6e,
  0x73, 0x65, 0x5f, 0x31, 0x2f, 0x4d, 0x61, 0x74, 0x4d, 0x75, 0x6c, 0x3b,
  0x73, 0x65, 0x71, 0x75, 0x65, 0x6e, 0x74, 0x69, 0x61, 0x6c, 0x5f, 0x31,
  0x2f, 0x64, 0x65, 0x6e, 0x73, 0x65, 0x5f, 0x31, 0x2f, 0x42, 0x69, 0x61,
  0x73, 0x41, 0x64, 0x64, 0x00, 0x00, 0x00, 0x00, 0x02, 0x00, 0x00, 0x00,
  0x01, 0x00, 0x00, 0x00, 0x08, 0x00, 0x00, 0x00, 0x4e, 0xfe, 0xff, 0xff,
  0x00, 0x00, 0x00, 0x01, 0x10, 0x00, 0x00, 0x00, 0x10, 0x00, 0x00, 0x00,
  0x09, 0x00, 0x00, 0x00, 0x2c, 0x00, 0x00, 0x00, 0xd4, 0xfd, 0xff, 0xff,
  0x1c, 0x00, 0x00, 0x00, 0x73, 0x65, 0x71, 0x75, 0x65, 0x6e, 0x74, 0x69,
  0x61, 0x6c, 0x5f, 0x31, 0x2f, 0x64, 0x65, 0x6e, 0x73, 0x65, 0x5f, 0x31,
  0x2f, 0x42, 0x69, 0x61, 0x73, 0x41, 0x64, 0x64, 0x00, 0x00, 0x00, 0x00,
  0x01, 0x00, 0x00, 0x00, 0x08, 0x00, 0x00, 0x00, 0x96, 0xfe, 0xff, 0xff,
  0x00, 0x00, 0x00, 0x01, 0x10, 0x00, 0x00, 0x00, 0x10, 0x00, 0x00, 0x00,
  0x08, 0x00, 0x00, 0x00, 0x28, 0x00, 0x00, 0x00, 0x1c, 0xfe, 0xff, 0xff,
  0x1b, 0x00, 0x00, 0x00, 0x73, 0x65, 0x71, 0x75, 0x65, 0x6e, 0x74, 0x69,
  0x61, 0x6c, 0x5f, 0x31, 0x2f, 0x64, 0x65, 0x6e, 0x73, 0x65, 0x5f, 0x31,
  0x2f, 0x4d, 0x61, 0x74, 0x4d, 0x75, 0x6c, 0x00, 0x02, 0x00, 0x00, 0x00,
  0x08, 0x00, 0x00, 0x00, 0x15, 0x00, 0x00, 0x00, 0xde, 0xfe, 0xff, 0xff,
  0x00, 0x00, 0x00, 0x01, 0x10, 0x00, 0x00, 0x00, 0x10, 0x00, 0x00, 0x00,
  0x07, 0x00, 0x00, 0x00, 0x1c, 0x00, 0x00, 0x00, 0x64, 0xfe, 0xff, 0xff,
  0x0f, 0x00, 0x00, 0x00, 0x61, 0x72, 0x69, 0x74, 0x68, 0x2e, 0x63, 0x6f,
  0x6e, 0x73, 0x74, 0x61, 0x6e, 0x74, 0x35, 0x00, 0x01, 0x00, 0x00, 0x00,
  0x10, 0x00, 0x00, 0x00, 0x16, 0xff, 0xff, 0xff, 0x00, 0x00, 0x00, 0x01,
  0x10, 0x00, 0x00, 0x00, 0x10, 0x00, 0x00, 0x00, 0x06, 0x00, 0x00, 0x00,
  0x1c, 0x00, 0x00, 0x00, 0x9c, 0xfe, 0xff, 0xff, 0x0f, 0x00, 0x00, 0x00,
  0x61, 0x72, 0x69, 0x74, 0x68, 0x2e, 0x63, 0x6f, 0x6e, 0x73, 0x74, 0x61,
  0x6e, 0x74, 0x34, 0x00, 0x02, 0x00, 0x00, 0x00, 0x10, 0x00, 0x00, 0x00,
  0x08, 0x00, 0x00, 0x00, 0x52, 0xff, 0xff, 0xff, 0x00, 0x00, 0x00, 0x01,
  0x10, 0x00, 0x00, 0x00, 0x10, 0x00, 0x00, 0x00, 0x05, 0x00, 0x00, 0x00,
  0x1c, 0x00, 0x00, 0x00, 0xd8, 0xfe, 0xff, 0xff, 0x0f, 0x00, 0x00, 0x00,
  0x61, 0x72, 0x69, 0x74, 0x68, 0x2e, 0x63, 0x6f, 0x6e, 0x73, 0x74, 0x61,
  0x6e, 0x74, 0x33, 0x00, 0x01, 0x00, 0x00, 0x00, 0x08, 0x00, 0x00, 0x00,
  0x8a, 0xff, 0xff, 0xff, 0x00, 0x00, 0x00, 0x01, 0x10, 0x00, 0x00, 0x00,
  0x10, 0x00, 0x00, 0x00, 0x04, 0x00, 0x00, 0x00, 0x1c, 0x00, 0x00, 0x00,
  0x10, 0xff, 0xff, 0xff, 0x0f, 0x00, 0x00, 0x00, 0x61, 0x72, 0x69, 0x74,
  0x68, 0x2e, 0x63, 0x6f, 0x6e, 0x73, 0x74, 0x61, 0x6e, 0x74, 0x32, 0x00,
  0x02, 0x00, 0x00, 0x00, 0x08, 0x00, 0x00, 0x00, 0x10, 0x00, 0x00, 0x00,
  0xc6, 0xff, 0xff, 0xff, 0x00, 0x00, 0x00, 0x01, 0x10, 0x00, 0x00, 0x00,
  0x10, 0x00, 0x00, 0x00, 0x03, 0x00, 0x00, 0x00, 0x1c, 0x00, 0x00, 0x00,
  0x4c, 0xff, 0xff, 0xff, 0x0f, 0x00, 0x00, 0x00, 0x61, 0x72, 0x69, 0x74,
  0x68, 0x2e, 0x63, 0x6f, 0x6e, 0x73, 0x74, 0x61, 0x6e, 0x74, 0x31, 0x00,
  0x01, 0x00, 0x00, 0x00, 0x03, 0x00, 0x00, 0x00, 0x00, 0x00, 0x16, 0x00,
  0x18, 0x00, 0x14, 0x00, 0x00, 0x00, 0x10, 0x00, 0x0c, 0x00, 0x08, 0x00,
  0x00, 0x00, 0x00, 0x00, 0x00, 0x00, 0x07, 0x00, 0x16, 0x00, 0x00, 0x00,
  0x00, 0x00, 0x00, 0x01, 0x10, 0x00, 0x00, 0x00, 0x10, 0x00, 0x00, 0x00,
  0x02, 0x00, 0x00, 0x00, 0x1c, 0x00, 0x00, 0x00, 0x9c, 0xff, 0xff, 0xff,
  0x0e, 0x00, 0x00, 0x00, 0x61, 0x72, 0x69, 0x74, 0x68, 0x2e, 0x63, 0x6f,
  0x6e, 0x73, 0x74, 0x61, 0x6e, 0x74, 0x00, 0x00, 0x02, 0x00, 0x00, 0x00,
  0x03, 0x00, 0x00, 0x00, 0x08, 0x00, 0x00, 0x00, 0x00, 0x00, 0x16, 0x00,
  0x1c, 0x00, 0x18, 0x00, 0x00, 0x00, 0x14, 0x00, 0x10, 0x00, 0x0c, 0x00,
  0x00, 0x00, 0x00, 0x00, 0x08, 0x00, 0x07, 0x00, 0x16, 0x00, 0x00, 0x00,
  0x00, 0x00, 0x00, 0x01, 0x14, 0x00, 0x00, 0x00, 0x20, 0x00, 0x00, 0x00,
  0x20, 0x00, 0x00, 0x00, 0x01, 0x00, 0x00, 0x00, 0x3c, 0x00, 0x00, 0x00,
  0x02, 0x00, 0x00, 0x00, 0xff, 0xff, 0xff, 0xff, 0x15, 0x00, 0x00, 0x00,
  0x04, 0x00, 0x04, 0x00, 0x04, 0x00, 0x00, 0x00, 0x1e, 0x00, 0x00, 0x00,
  0x73, 0x65, 0x72, 0x76, 0x69, 0x6e, 0x67, 0x5f, 0x64, 0x65, 0x66, 0x61,
  0x75, 0x6c, 0x74, 0x5f, 0x6b, 0x65, 0x72, 0x61, 0x73, 0x5f, 0x74, 0x65,
  0x6e, 0x73, 0x6f, 0x72, 0x3a, 0x30, 0x00, 0x00, 0x02, 0x00, 0x00, 0x00,
  0x01, 0x00, 0x00, 0x00, 0x15, 0x00, 0x00, 0x00, 0x03, 0x00, 0x00, 0x00,
  0x30, 0x00, 0x00, 0x00, 0x14, 0x00, 0x00, 0x00, 0x04, 0x00, 0x00, 0x00,
  0xe8, 0xff, 0xff, 0xff, 0x19, 0x00, 0x00, 0x00, 0x00, 0x00, 0x00, 0x19,
  0xf4, 0xff, 0xff, 0xff, 0x62, 0x00, 0x00, 0x00, 0x00, 0x00, 0x00, 0x62,
  0x0c, 0x00, 0x0c, 0x00, 0x0b, 0x00, 0x00, 0x00, 0x00, 0x00, 0x04, 0x00,
  0x0c, 0x00, 0x00, 0x00, 0x09, 0x00, 0x00, 0x00, 0x00, 0x00, 0x00, 0x09
};
unsigned int csi_model_nn_tflite_len = 5100;
